! 1596403
, 23936082
▁- 2272580
. 16350645
: 200814
; 119787
? 1501329
a 622204
b 186124
c 280851
d 259391
e 734114
f 133211
g 190037
h 176613
i 541534
j 19798
k 111702
l 357664
m 258503
n 412077
o 585937
p 238762
q 16070
r 479347
s 336260
t 497590
u 255396
v 107106
w 112113
x 74983
y 147856
z 30274
а 1691569
ак 738758
ако 245481
аль 201365
ально 243361
ан 239420
ая 111430
б 1727209
ба 497719
бе 461609
би 637996
бира 243946
бли 153491
бо 1310851
бой 218791
бра 274941
бу 424357
бы 462264
бя 121012
в 3477560
ва 2301382
ваем 241518
вает 255927
вается 157420
вай 128368
вайте 155359
вал 171561
вали 192546
вание 148067
вания 199642
вать 880931
ваться 185389
вают 138674
вая 247189
ве 1352108
вед 137578
вер 799114
верх 139641
вет 529823
ви 1744610
вить 289753
вля 360414
вляется 165104
вно 540403
во 1934367
вого 145015
вое 179652
вой 378921
вра 127564
вто 74870
ву 436444
вы 599634
вые 268891
вый 291715
вых 251817
вь 133136
вя 204786
г 1675623
га 1228223
гда 170519
ге 207576
ги 837599
гла 173678
гля 183200
го 2185640
гово 171426
год 68497
годня 1381
гра 368452
грам 128161
гу 473709
д 3143085
да 2502742
де 1541457
дей 92948
дела 63170
дели 183957
дем 154683
дер 277052
дет 337583
деть 134735
ди 1424665
дим 132823
дин 123920
дит 162621
дите 264571
дить 147754
дно 249504
до 1437499
дол 132233
дом 202435
дра 144069
ду 1170760
дца 48772
дцать 141078
ды 662173
дь 368246
дя 144923
е 4795897
ей 440066
ек 296477
ем 2308622
ему 302770
ен 1566733
ена 220332
ене 154511
ени 233412
ение 518251
ением 158519
ении 250501
ений 200666
ению 190202
ения 543751
енно 446391
ент 243202
ены 169767
ень 439564
ер 977756
ере 294097
ет 2395343
ета 144031
ете 789563
ети 187136
ется 1125595
ешь 238532
ж 1689026
жа 981756
жать 138212
жд 204683
жда 234653
жду 19505
же 652116
жен 300814
жение 175262
жения 158301
жет 126493
жи 1251350
жно 381396
жу 332882
з 2413433
за 1177975
зво 99126
зда 39219
зи 717657
зна 396571
зо 638307
зу 474813
зы 350963
зыва 279368
и 2564115
ит 228023
й 4979280
йте 403110
йти 231819
к 3267083
ка 2284054
каза 292583
ками 161102
ках 137165
ке 738438
ки 1867982
кий 167562
кла 246541
клю 246892
ко 1721660
ков 431142
кой 412788
ком 337569
кра 323294
кру 159613
кры 138270
кти 141791
ку 1614646
л 4397550
ла 2623650
лась 358866
ле 1462390
лее 147987
лез 171230
лей 291361
лек 251728
лем 159325
лен 561800
ление 219885
ления 258830
лет 247417
ли 4711462
лись 426410
лки 131803
ло 2714652
лове 38432
логи 168133
лом 164850
лось 434762
лся 535793
лу 666748
лы 641653
ль 2277044
лько 157057
льно 781350
льный 132188
льта 134829
лю 728583
ля 924121
м 5499780
ма 1547431
ман 167053
ме 1043904
мен 665530
мени 258111
менно 51961
мент 178910
мента 198168
мер 391032
мет 332232
ми 2532846
мо 1220984
можно 36677
мот 218769
мотри 143258
му 1023854
мы 518867
мя 141869
н 4298303
на 2418917
нако 180888
ная 761012
не 1420461
нее 262209
ней 265245
нем 145140
нер 156504
нет 218509
ни 2575692
ние 538270
нии 320390
ний 233597
ник 239444
ника 264096
ники 134745
нима 352074
нить 138885
ния 461358
нк 162665
нно 129140
но 2651451
нов 385027
нови 136983
ного 795626
ное 390306
ной 1117407
ном 311152
ности 146091
ну 934986
нут 89706
нуть 139637
ную 485914
ны 1056909
ные 1278412
ный 1175106
ным 610163
ными 292171
ных 1014966
нь 193046
ню 139778
ня 823177
о 1183749
об 149511
обра 132385
обще 15236
ой 169925
он 304683
она 205632
ор 59146
от 139095
п 1899497
па 1180034
пе 677436
пер 171159
перь 277
пи 857429
писа 238153
пла 136575
по 1022508
пол 269913
пра 339368
прав 148845
пре 133004
при 190106
про 395515
пу 455629
пусти 147853
пы 212911
р 3474939
ра 2778585
рави 169940
ран 407032
рая 47630
ре 2180084
ред 189583
рен 261421
рет 268673
реть 160740
ри 2324362
рии 202845
рить 126444
ро 2377645
ров 617005
рова 350175
ровать 224032
род 169105
рой 283329
ром 432064
рт 201682
ру 1412173
рую 132719
ры 806543
рь 139135
рю 147323
ря 875160
с 3438211
са 899090
се 556425
си 1341572
ск 149824
ска 348367
ская 132083
ски 393257
ский 163401
ско 496801
ского 202894
ской 251931
сколько 43702
ску 144100
сла 139128
сле 165606
сли 94462
сло 181561
смот 126685
сно 344671
со 1123133
соб 241523
сов 165289
спо 174755
сс 179196
сси 195977
ст 1593495
ста 1023349
став 180038
ставля 130066
ств 180897
ства 401146
стве 127178
ствен 288630
ственно 272184
стви 219922
ство 557029
ству 293697
сте 375405
сти 1533404
сто 886892
стоя 369534
стра 175752
стре 95117
стро 395075
сту 337220
сты 200038
сть 1015197
стью 212069
су 501817
сы 610156
сь 748629
ся 1029899
т 3799309
та 1973914
так 227537
те 2250968
тель 565028
тельно 615344
теля 123786
тер 129454
тери 167364
ти 2417106
тив 279159
тия 127811
тно 273913
то 2675189
тов 506350
том 242416
тому 7462
тор 162374
торы 135178
точно 130891
тра 171226
три 144253
тро 165413
тся 717807
ту 912534
ты 1092749
ть 4044114
ться 921798
тя 268954
у 1739199
ут 354331
ую 577828
ф 898126
фе 151517
фи 366739
фор 113169
форма 135194
х 3231111
ха 509152
хи 191734
хо 710550
ход 301556
ходи 267906
ходит 231071
ц 683156
ца 476668
це 474273
ци 943946
ции 554373
цию 217202
ция 328679
цо 127340
цу 138807
цы 228529
ч 1964534
ча 1254275
час 3480
че 1152237
чего 26309
чем 131289
чение 134974
чения 130365
чень 27273
чески 440576
чество 142018
чет 211474
чи 1638714
чина 82836
чит 162982
чита 70687
чка 231856
чки 234055
чку 148487
чно 495461
чу 192641
чь 180105
ш 1987956
ша 816583
ше 622110
шего 173334
шей 198217
шел 160582
шения 159025
ши 1213739
шие 127592
ший 125464
ших 180229
шка 143760
шки 129281
шо 128241
шу 134443
шь 436573
щ 798213
ща 552386
ще 642978
щем 153770
щи 641635
ъ 133277
ы 1044364
ь 706277
ье 184434
ью 240573
ья 132912
э 266367
ю 2272595
юсь 154303
ют 906715
ются 409368
ющи 343251
я 3332428
яза 19972
ят 516695
ять 329266
ях 195695
▁ 2228337
▁– 1796384
▁s 131292
▁а 3003193
▁авто 185772
▁ак 297392
▁ан 184199
▁ар 146667
▁б 623895
▁ба 439682
▁бе 527262
▁без 263816
▁би 203378
▁бла 20062
▁благо 151812
▁бли 141539
▁бо 712418
▁более 236035
▁боль 360628
▁больше 292255
▁бра 125555
▁бу 345101
▁будем 128631
▁будет 721491
▁буду 191312
▁будут 162509
▁бы 756128
▁был 303893
▁была 209129
▁были 202354
▁было 449533
▁быть 386598
▁в 8072797
▁ва 902005
▁вам 567639
▁вами 173504
▁вас 480048
▁ве 803668
▁ведь 133410
▁вер 297976
▁вз 250453
▁ви 728502
▁виде 122949
▁видео 396352
▁вла 140640
▁вме 155184
▁внима 149823
▁внут 142801
▁во 1150284
▁воз 392814
▁возможно 217129
▁вообще 202012
▁вопро 214362
▁вос 231141
▁вот 1343779
▁вре 205049
▁время 337225
▁вс 188234
▁все 1616022
▁всегда 198568
▁всего 219498
▁всем 259828
▁всех 185313
▁встре 138807
▁вто 195142
▁вы 3123886
▁г 858105
▁га 226512
▁где 332522
▁гла 320523
▁го 913671
▁гово 143006
▁говори 305217
▁голо 170309
▁гото 138592
▁гра 161147
▁гру 180017
▁д 1388736
▁да 1224120
▁давайте 139154
▁даже 367638
▁даль 37713
▁дальше 132005
▁дан 201491
▁два 246329
▁дви 130144
▁де 867378
▁дей 44960
▁действи 176821
▁дела 321841
▁делать 185652
▁день 278464
▁ди 340570
▁для 1214164
▁до 1763781
▁доба 155584
▁дол 297969
▁долж 168907
▁доро 157048
▁доста 163871
▁дру 200748
▁други 235618
▁друго 196204
▁друз 19572
▁друзья 149142
▁ду 242751
▁дума 220113
▁е 632954
▁его 814281
▁ее 431027
▁ему 180063
▁если 1026142
▁есть 1060816
▁еще 637532
▁ж 188379
▁же 908233
▁жела 124363
▁жен 74916
▁<SC> 138527
▁жи 402635
▁жиз 25806
▁жизни 181348
▁жизнь 141607
▁з 997375
▁за 3344150
▁зада 144352
▁зак 303873
▁зде 1509
▁здесь 513341
▁зем 129666
▁зна 584878
▁знаю 123696
▁зо 140883
▁и 9501231
▁иг 194528
▁из 1608326
▁или 763214
▁им 203899
▁име 204381
▁именно 206000
▁ин 461674
▁инте 127370
▁интере 130769
▁интерес 124821
▁ис 313568
▁испо 58548
▁исполь 110085
▁использо 159010
▁исто 173819
▁их 488085
▁к 1973474
▁ка 828627
▁каж 219562
▁кажды 134999
▁как 2036368
▁каки 112876
▁какие 194098
▁како 131525
▁какой 198438
▁кана 130308
▁канал 161159
▁кар 244829
▁ки 276066
▁кла 163701
▁кли 127242
▁ко 1284034
▁когда 630150
▁ком 519882
▁кон 607907
▁коне 29087
▁конечно 249000
▁кор 126393
▁коро 149503
▁кото 226340
▁которая 174422
▁которо 158952
▁которы 153158
▁которые 463180
▁который 328534
▁кра 386431
▁кре 152915
▁кро 152218
▁кру 194497
▁кто 330476
▁ку 580795
▁ла 329797
▁ле 349996
▁лег 143888
▁лет 152741
▁ли 839420
▁либо 131357
▁ло 266708
▁лу 97986
▁луч 74280
▁лучше 149703
▁лю 332710
▁люби 144918
▁любо 145491
▁людей 166919
▁люди 195927
▁м 662865
▁ма 1291526
▁ме 821050
▁между 126594
▁мен 95919
▁меня 608178
▁ми 754921
▁мне 495177
▁мно 43676
▁многи 140230
▁много 295430
▁мо 1469799
▁мог 127286
▁могут 150744
▁мож 92598
▁может 468150
▁можете 179182
▁можно 575618
▁мой 135437
▁му 259608
▁муж 168502
▁мы 1540385
▁н 193828
▁на 7100887
▁надо 240795
▁называ 125108
▁нам 324936
▁напри 332
▁например 177946
▁нас 547364
▁находи 135696
▁нача 243714
▁начина 184437
▁наш 240268
▁не 5831929
▁него 204521
▁неко 135918
▁нем 229504
▁необ 9731
▁необходи 146411
▁несколько 141094
▁нет 439038
▁ни 568811
▁ник 191437
▁нико 143196
▁них 209161
▁ничего 178862
▁но 2322422
▁ну 738888
▁нужно 411509
▁о 3248580
▁об 1168940
▁обо 157674
▁обра 264654
▁образо 152584
▁объ 194332
▁обы 144237
▁обяза 139852
▁ог 123732
▁од 629301
▁один 284154
▁он 1146936
▁она 621809
▁они 730831
▁оп 246199
▁опре 132615
▁ор 35815
▁орга 147151
▁осно 183824
▁оста 426827
▁от 1936123
▁ответ 126369
▁откры 158849
▁отли 139111
▁отно 197142
▁очень 800041
▁п 942709
▁па 850548
▁пе 271848
▁пер 525675
▁пере 720814
▁перед 136044
▁пи 429483
▁пла 364140
▁пло 195663
▁по 5675187
▁под 1162575
▁подо 190168
▁подпи 163298
▁позво 135282
▁пока 398064
▁пол 258137
▁поло 201776
▁полу 80591
▁получа 183096
▁получи 255777
▁помо 357442
▁понима 210752
▁поня 204602
▁пос 371072
▁после 310235
▁послед 131234
▁потом 202181
▁потому 439538
▁поч 105065
▁почему 183551
▁поэ 9770
▁поэтому 327647
▁поя 165848
▁пра 370359
▁прави 204684
▁пре 626079
▁пред 484525
▁при 2626587
▁привет 133765
▁про 2602606
▁проб 23977
▁проблем 145009
▁прои 191756
▁проис 141150
▁просто 554370
▁проце 128117
▁пря 188342
▁пу 415834
▁ра 766767
▁рабо 265012
▁работа 287020
▁раз 1447869
▁рас 519359
▁расска 210027
▁ре 1392543
▁реши 127167
▁ри 156835
▁ро 628945
▁росси 166574
▁ру 485384
▁ры 142595
▁с 6079830
▁са 685535
▁само 466763
▁самы 219049
▁сво 166147
▁свое 187133
▁своей 135414
▁свои 362610
▁свой 146776
▁свою 141098
▁свя 212377
▁сдела 215390
▁сделать 196778
▁се 392593
▁себе 213941
▁себя 294437
▁сегодня 266402
▁сей 10538
▁сейчас 433517
▁сем 200558
▁сер 231430
▁си 740591
▁сист 27296
▁систем 129493
▁ска 203283
▁сказа 269140
▁ско 319046
▁сле 135668
▁следу 197708
▁сло 411929
▁слу 165574
▁случа 83537
▁случае 132990
▁смо 158313
▁смотри 156596
▁со 2190227
▁соб 181664
▁сов 178216
▁созда 198909
▁спа 224757
▁спе 161761
▁спо 294068
▁сра 72664
▁сразу 136160
▁ст 432375
▁ста 916187
▁сто 488517
▁сторо 217377
▁стра 303132
▁су 442280
▁суще 124705
▁счита 128379
▁сы 124130
▁т 688120
▁та 315189
▁так 1252879
▁такая 134500
▁также 330907
▁таки 244882
▁такие 166902
▁тако 129727
▁такое 167653
▁такой 268213
▁там 487864
▁тво 145457
▁те 526571
▁тебе 169866
▁тебя 200971
▁теле 124869
▁тем 384909
▁теперь 275448
▁тер 135660
▁тех 193480
▁ти 167926
▁то 2193883
▁тогда 163232
▁того 372555
▁тоже 281942
▁только 521148
▁том 301954
▁тра 155631
▁тре 183320
▁три 214967
▁тру 141197
▁ту 253267
▁тут 230917
▁ты 727688
▁у 4473062
▁уви 143589
▁уда 176799
▁удо 135894
▁уже 607676
▁ус 285907
▁уста 136443
▁ф 565633
▁фа 133497
▁фи 363912
▁фо 134472
▁фор 179904
▁х 487701
▁ха 141834
▁хо 688893
▁хоро 182820
▁хорошо 203636
▁хоте 127287
▁хочу 132646
▁ц 422631
▁це 262005
▁ч 113338
▁ча 564412
▁че 142463
▁чего 138118
▁челове 239518
▁человек 179138
▁чем 341287
▁чер 132221
▁чере 20132
▁через 181705
▁чет 169789
▁чи 238422
▁что 3779312
▁чтобы 751700
▁чу 161515
▁чув 146705
▁ш 465988
▁ша 192358
▁ше 125746
▁э 757312
▁эк 146057
▁эта 211471
▁эти 416761
▁этим 144886
▁это 2870532
▁этого 387375
▁этой 229246
▁этом 428112
▁этот 389587
▁эту 177270
▁ю 124793
▁я 3109548
